TRT-101401-EntropyCalibration2
x: 3caa54fc
p2o.pd_op.conv2d.0.0: 3cda735a
p2o.pd_op.batch_norm_.0.0: 3e5a2dbc
p2o.pd_op.depthwise_conv2d.0.0: 3df0e23e
p2o.pd_op.reshape.0.0_output: 3d2a8c3e
Add.1: 3e5276c3
p2o.pd_op.add.0.0: 3e5276c3
learnable_affine_block_0.w_0_output: 3b9192be
ONNXTRT_Broadcast_output: 3b9192be
Mul.1: 3ded6e44
p2o.pd_op.multiply.0.0: 3ded6e44
learnable_affine_block_0.w_1_output: 3ab4e58b
ONNXTRT_Broadcast_1_output: 3ab4e58b
Add.3: 3df25196
p2o.pd_op.add.1.0: 3df25196
HardSwish.0_output: 3c010a14
p2o.pd_op.hardswish.0.0: 3dc1e180
learnable_affine_block_1.w_0_output: 38bf9904
ONNXTRT_Broadcast_4_output: 38bf9904
Mul.3: 3a8fefed
p2o.pd_op.multiply.1.0: 3a8fefed
learnable_affine_block_1.w_1_output: 35cfc8db
ONNXTRT_Broadcast_6_output: 35cfc8db
Add.5: 3a3b4d2f
p2o.pd_op.add.2.0: 3a3b4d2f
p2o.pd_op.conv2d.1.0: 3ef232fa
p2o.pd_op.reshape.1.0_output: 3e716676
Add.7: 3e95aeb8
p2o.pd_op.add.3.0: 3e95aeb8
learnable_affine_block_2.w_0_output: 3bb4077d
ONNXTRT_Broadcast_8_output: 3bb4077d
Mul.5: 3e50d45b
p2o.pd_op.multiply.2.0: 3e50d45b
learnable_affine_block_2.w_1_output: 3ad84c91
ONNXTRT_Broadcast_10_output: 3ad84c91
Add.9: 3e6216eb
p2o.pd_op.add.4.0: 3e6216eb
HardSwish.1_output: 3c010a14
p2o.pd_op.hardswish.1.0: 3e40115f
learnable_affine_block_3.w_0_output: 3a9e1c4d
ONNXTRT_Broadcast_13_output: 3a9e1c4d
Mul.7: 3ceb56b2
p2o.pd_op.multiply.3.0: 3ceb56b2
learnable_affine_block_3.w_1_output: 3b025118
ONNXTRT_Broadcast_15_output: 3b025118
Add.11: 3c9f2a62
p2o.pd_op.add.5.0: 3c9f2a62
p2o.pd_op.depthwise_conv2d.1.0: 3eea62d3
p2o.pd_op.reshape.2.0_output: 3e62a5c9
Add.13: 3f21670d
p2o.pd_op.add.6.0: 3f21670d
learnable_affine_block_4.w_0_output: 3b884379
ONNXTRT_Broadcast_17_output: 3b884379
Mul.9: 3eaa7046
p2o.pd_op.multiply.4.0: 3eaa7046
learnable_affine_block_4.w_1_output: 3b04d87a
ONNXTRT_Broadcast_19_output: 3b04d87a
Add.15: 3ea5e9c1
p2o.pd_op.add.7.0: 3ea5e9c1
HardSwish.2_output: 3c010a14
p2o.pd_op.hardswish.2.0: 3e9c5369
learnable_affine_block_5.w_0_output: 3a88e585
ONNXTRT_Broadcast_22_output: 3a88e585
Mul.11: 3d25d82e
p2o.pd_op.multiply.5.0: 3d25d82e
learnable_affine_block_5.w_1_output: 3424e169
ONNXTRT_Broadcast_24_output: 3424e169
Add.17: 3d25d80b
p2o.pd_op.add.8.0: 3d25d80b
p2o.pd_op.conv2d.2.0: 3ef42f55
p2o.pd_op.reshape.3.0_output: 3e8e029f
Add.19: 3eb76158
p2o.pd_op.add.9.0: 3eb76158
learnable_affine_block_6.w_0_output: 3bb9755a
ONNXTRT_Broadcast_26_output: 3bb9755a
Mul.13: 3e83c779
p2o.pd_op.multiply.6.0: 3e83c779
learnable_affine_block_6.w_1_output: 3ac6b389
ONNXTRT_Broadcast_28_output: 3ac6b389
Add.21: 3e8cbbd0
p2o.pd_op.add.10.0: 3e8cbbd0
HardSwish.3_output: 3c010a14
p2o.pd_op.hardswish.3.0: 3e00d52a
learnable_affine_block_7.w_0_output: 3aab3306
ONNXTRT_Broadcast_31_output: 3aab3306
Mul.15: 3caaecd3
p2o.pd_op.multiply.7.0: 3caaecd3
learnable_affine_block_7.w_1_output: 3b53e1a6
ONNXTRT_Broadcast_33_output: 3b53e1a6
Add.23: 3ce8ed6e
p2o.pd_op.add.11.0: 3ce8ed6e
p2o.pd_op.depthwise_conv2d.2.0: 3eb9d309
p2o.pd_op.reshape.4.0_output: 3ebc2e36
Add.25: 3f179a61
p2o.pd_op.add.12.0: 3f179a61
learnable_affine_block_8.w_0_output: 3c1aff6c
ONNXTRT_Broadcast_35_output: 3c1aff6c
Mul.17: 3f3619b7
p2o.pd_op.multiply.8.0: 3f3619b7
learnable_affine_block_8.w_1_output: 3986d818
ONNXTRT_Broadcast_37_output: 3986d818
Add.27: 3f36255c
p2o.pd_op.add.13.0: 3f36255c
HardSwish.4_output: 3c010a14
p2o.pd_op.hardswish.4.0: 3ec3eb65
learnable_affine_block_9.w_0_output: 38887ea3
ONNXTRT_Broadcast_40_output: 38887ea3
Mul.19: 3b4f3d26
p2o.pd_op.multiply.9.0: 3b4f3d26
learnable_affine_block_9.w_1_output: 35b07760
ONNXTRT_Broadcast_42_output: 35b07760
Add.29: 3b888cb2
p2o.pd_op.add.14.0: 3b888cb2
p2o.pd_op.conv2d.3.0: 3f6b7d51
p2o.pd_op.reshape.5.0_output: 3df8fd00
Add.31: 3f8054d1
p2o.pd_op.add.15.0: 3f8054d1
learnable_affine_block_10.w_0_output: 3bcd70e9
ONNXTRT_Broadcast_44_output: 3bcd70e9
Mul.21: 3f4c5053
p2o.pd_op.multiply.10.0: 3f4c5053
learnable_affine_block_10.w_1_output: 3a5af952
ONNXTRT_Broadcast_46_output: 3a5af952
Add.33: 3f25036a
p2o.pd_op.add.16.0: 3f25036a
HardSwish.5_output: 3c010a14
p2o.pd_op.hardswish.5.0: 3ed8bdd9
learnable_affine_block_11.w_0_output: 3adec7ce
ONNXTRT_Broadcast_49_output: 3adec7ce
Mul.23: 3dbb18de
p2o.pd_op.multiply.11.0: 3dbb18de
learnable_affine_block_11.w_1_output: 3a898c99
ONNXTRT_Broadcast_51_output: 3a898c99
Add.35: 3d57e734
p2o.pd_op.add.17.0: 3d57e734
p2o.pd_op.depthwise_conv2d.3.0: 3f0bd76c
p2o.pd_op.reshape.6.0_output: 3e1bf44c
Add.37: 3f0f169d
p2o.pd_op.add.18.0: 3f0f169d
learnable_affine_block_12.w_0_output: 3b68dd4d
ONNXTRT_Broadcast_53_output: 3b68dd4d
Mul.25: 3e811bce
p2o.pd_op.multiply.12.0: 3e811bce
learnable_affine_block_12.w_1_output: 3b0e85bd
ONNXTRT_Broadcast_55_output: 3b0e85bd
Add.39: 3e81563e
p2o.pd_op.add.19.0: 3e81563e
HardSwish.6_output: 3c010a14
p2o.pd_op.hardswish.6.0: 3e4ab88d
learnable_affine_block_13.w_0_output: 39810368
ONNXTRT_Broadcast_58_output: 39810368
Mul.27: 3bcaae11
p2o.pd_op.multiply.13.0: 3bcaae11
learnable_affine_block_13.w_1_output: 34c64446
ONNXTRT_Broadcast_60_output: 34c64446
Add.41: 3bcaabf3
p2o.pd_op.add.20.0: 3bcaabf3
p2o.pd_op.conv2d.4.0: 3f09291e
p2o.pd_op.reshape.7.0_output: 3e844bbb
Add.43: 3ebf28b9
p2o.pd_op.add.21.0: 3ebf28b9
learnable_affine_block_14.w_0_output: 3b9cbbff
ONNXTRT_Broadcast_62_output: 3b9cbbff
Mul.29: 3e682fbc
p2o.pd_op.multiply.14.0: 3e682fbc
learnable_affine_block_14.w_1_output: 3b30e17c
ONNXTRT_Broadcast_64_output: 3b30e17c
Add.45: 3e66f80a
p2o.pd_op.add.22.0: 3e66f80a
HardSwish.7_output: 3c010a14
p2o.pd_op.hardswish.7.0: 3e4157bb
learnable_affine_block_15.w_0_output: 3b03ded1
ONNXTRT_Broadcast_67_output: 3b03ded1
Mul.31: 3d4595a0
p2o.pd_op.multiply.15.0: 3d4595a0
learnable_affine_block_15.w_1_output: 3b40cc12
ONNXTRT_Broadcast_69_output: 3b40cc12
Add.47: 3ce76cd7
p2o.pd_op.add.23.0: 3ce76cd7
p2o.pd_op.depthwise_conv2d.4.0: 3ee040fe
p2o.pd_op.reshape.8.0_output: 3e1de789
Add.49: 3f04f3bb
p2o.pd_op.add.24.0: 3f04f3bb
learnable_affine_block_16.w_0_output: 3bfb758c
ONNXTRT_Broadcast_71_output: 3bfb758c
Mul.33: 3f018abc
p2o.pd_op.multiply.16.0: 3f018abc
learnable_affine_block_16.w_1_output: 3a3ac3e9
ONNXTRT_Broadcast_73_output: 3a3ac3e9
Add.51: 3ef45c8b
p2o.pd_op.add.25.0: 3ef45c8b
HardSwish.8_output: 3c010a14
p2o.pd_op.hardswish.8.0: 3ed41306
learnable_affine_block_17.w_0_output: 392429df
ONNXTRT_Broadcast_76_output: 392429df
Mul.35: 3c06e674
p2o.pd_op.multiply.17.0: 3c06e674
learnable_affine_block_17.w_1_output: 338af92a
ONNXTRT_Broadcast_78_output: 338af92a
Add.53: 3c06e641
p2o.pd_op.add.26.0: 3c06e641
p2o.pd_op.conv2d.5.0: 3ebf0759
p2o.pd_op.reshape.9.0_output: 3dffdc54
Add.55: 3ea89235
p2o.pd_op.add.27.0: 3ea89235
learnable_affine_block_18.w_0_output: 3babb5e7
ONNXTRT_Broadcast_80_output: 3babb5e7
Mul.37: 3e605097
p2o.pd_op.multiply.18.0: 3e605097
learnable_affine_block_18.w_1_output: 3a8de1df
ONNXTRT_Broadcast_82_output: 3a8de1df
Add.57: 3e5c2784
p2o.pd_op.add.28.0: 3e5c2784
HardSwish.9_output: 3c010a14
p2o.pd_op.hardswish.9.0: 3e08d872
learnable_affine_block_19.w_0_output: 3b3be589
ONNXTRT_Broadcast_85_output: 3b3be589
Mul.39: 3d474366
p2o.pd_op.multiply.19.0: 3d474366
learnable_affine_block_19.w_1_output: 399139b3
ONNXTRT_Broadcast_87_output: 399139b3
Add.59: 3d3a4a0a
p2o.pd_op.add.29.0: 3d3a4a0a
p2o.pd_op.depthwise_conv2d.5.0: 3f06d436
p2o.pd_op.reshape.10.0_output: 3e67b5a0
Add.61: 3ef462ab
p2o.pd_op.add.30.0: 3ef462ab
learnable_affine_block_20.w_0_output: 3b58226f
ONNXTRT_Broadcast_89_output: 3b58226f
Mul.41: 3e4caaac
p2o.pd_op.multiply.20.0: 3e4caaac
learnable_affine_block_20.w_1_output: 3acef952
ONNXTRT_Broadcast_91_output: 3acef952
Add.63: 3e557450
p2o.pd_op.add.31.0: 3e557450
HardSwish.10_output: 3c010a14
p2o.pd_op.hardswish.10.0: 3e461d0a
learnable_affine_block_21.w_0_output: 396be029
ONNXTRT_Broadcast_94_output: 396be029
Mul.43: 3bb511bb
p2o.pd_op.multiply.21.0: 3bb511bb
learnable_affine_block_21.w_1_output: 346ac667
ONNXTRT_Broadcast_96_output: 346ac667
Add.65: 3bb51337
p2o.pd_op.add.32.0: 3bb51337
p2o.pd_op.conv2d.6.0: 3eb656ee
p2o.pd_op.reshape.11.0_output: 3e1e884d
Add.67: 3e9fd74f
p2o.pd_op.add.33.0: 3e9fd74f
learnable_affine_block_22.w_0_output: 3b9fee3f
ONNXTRT_Broadcast_98_output: 3b9fee3f
Mul.45: 3e461b28
p2o.pd_op.multiply.22.0: 3e461b28
learnable_affine_block_22.w_1_output: 3af9ee70
ONNXTRT_Broadcast_100_output: 3af9ee70
Add.69: 3e51c981
p2o.pd_op.add.34.0: 3e51c981
HardSwish.11_output: 3c010a14
p2o.pd_op.hardswish.11.0: 3e0a06bf
learnable_affine_block_23.w_0_output: 3b65ff2b
ONNXTRT_Broadcast_103_output: 3b65ff2b
Mul.47: 3d7603d5
p2o.pd_op.multiply.23.0: 3d7603d5
learnable_affine_block_23.w_1_output: 3b0d7647
ONNXTRT_Broadcast_105_output: 3b0d7647
Add.71: 3d3288c1
p2o.pd_op.add.35.0: 3d3288c1
p2o.pd_op.depthwise_conv2d.6.0: 3ebee38e
p2o.pd_op.reshape.12.0_output: 3dc687e7
Add.73: 3ed2b01a
p2o.pd_op.add.36.0: 3ed2b01a
learnable_affine_block_24.w_0_output: 3b6fc942
ONNXTRT_Broadcast_107_output: 3b6fc942
Mul.49: 3e43c11e
p2o.pd_op.multiply.24.0: 3e43c11e
learnable_affine_block_24.w_1_output: 3936a291
ONNXTRT_Broadcast_109_output: 3936a291
Add.75: 3e52014a
p2o.pd_op.add.37.0: 3e52014a
HardSwish.12_output: 3c010a14
p2o.pd_op.hardswish.12.0: 3d9c1552
learnable_affine_block_25.w_0_output: 38c7569a
ONNXTRT_Broadcast_112_output: 38c7569a
Mul.51: 3a711d88
p2o.pd_op.multiply.25.0: 3a711d88
learnable_affine_block_25.w_1_output: 33b1ffcd
ONNXTRT_Broadcast_114_output: 33b1ffcd
Add.77: 3a711fc2
p2o.pd_op.add.38.0: 3a711fc2
p2o.pd_op.conv2d.7.0: 3e9e422b
p2o.pd_op.reshape.13.0_output: 3e2d8f6a
Add.79: 3e9ad789
p2o.pd_op.add.39.0: 3e9ad789
learnable_affine_block_26.w_0_output: 3ba36d71
ONNXTRT_Broadcast_116_output: 3ba36d71
Mul.53: 3e441b34
p2o.pd_op.multiply.26.0: 3e441b34
learnable_affine_block_26.w_1_output: 3a8799d3
ONNXTRT_Broadcast_118_output: 3a8799d3
Add.81: 3e3657db
p2o.pd_op.add.40.0: 3e3657db
HardSwish.13_output: 3c010a14
p2o.pd_op.hardswish.13.0: 3da03c99
learnable_affine_block_27.w_0_output: 3b6c5da1
ONNXTRT_Broadcast_121_output: 3b6c5da1
Mul.55: 3d12c168
p2o.pd_op.multiply.27.0: 3d12c168
learnable_affine_block_27.w_1_output: 3aa13f54
ONNXTRT_Broadcast_123_output: 3aa13f54
Add.83: 3d08eaba
p2o.pd_op.add.41.0: 3d08eaba
p2o.pd_op.depthwise_conv2d.7.0: 3e7c041a
p2o.pd_op.reshape.14.0_output: 3dfd8e5e
Add.85: 3e817181
p2o.pd_op.add.42.0: 3e817181
learnable_affine_block_28.w_0_output: 3b38747a
ONNXTRT_Broadcast_125_output: 3b38747a
Mul.57: 3db90852
p2o.pd_op.multiply.28.0: 3db90852
learnable_affine_block_28.w_1_output: 39c45fa8
ONNXTRT_Broadcast_127_output: 39c45fa8
Add.87: 3dc85736
p2o.pd_op.add.43.0: 3dc85736
HardSwish.14_output: 3c010a14
p2o.pd_op.hardswish.14.0: 3d63bc91
learnable_affine_block_29.w_0_output: 38e9dbe8
ONNXTRT_Broadcast_130_output: 38e9dbe8
Mul.59: 3a4e5d46
p2o.pd_op.multiply.29.0: 3a4e5d46
learnable_affine_block_29.w_1_output: 34424d4c
ONNXTRT_Broadcast_132_output: 34424d4c
Add.89: 3a4e5813
p2o.pd_op.add.44.0: 3a4e5813
p2o.pd_op.conv2d.8.0: 3e89ebe3
p2o.pd_op.reshape.15.0_output: 3db7243e
Add.91: 3e899e46
p2o.pd_op.add.45.0: 3e899e46
learnable_affine_block_30.w_0_output: 3ba3db06
ONNXTRT_Broadcast_134_output: 3ba3db06
Mul.61: 3e2ebfc6
p2o.pd_op.multiply.30.0: 3e2ebfc6
learnable_affine_block_30.w_1_output: 39cef797
ONNXTRT_Broadcast_136_output: 39cef797
Add.93: 3e263346
p2o.pd_op.add.46.0: 3e263346
HardSwish.15_output: 3c010a14
p2o.pd_op.hardswish.15.0: 3d81f9ee
learnable_affine_block_31.w_0_output: 3b92320c
ONNXTRT_Broadcast_139_output: 3b92320c
Mul.63: 3d1341ca
p2o.pd_op.multiply.31.0: 3d1341ca
learnable_affine_block_31.w_1_output: 3a19ec68
ONNXTRT_Broadcast_141_output: 3a19ec68
Add.95: 3d144f63
p2o.pd_op.add.47.0: 3d144f63
p2o.pd_op.depthwise_conv2d.8.0: 3e8b3237
p2o.pd_op.reshape.16.0_output: 3dd241e0
Add.97: 3e64a951
p2o.pd_op.add.48.0: 3e64a951
learnable_affine_block_32.w_0_output: 3b18d85a
ONNXTRT_Broadcast_143_output: 3b18d85a
Mul.65: 3d876c45
p2o.pd_op.multiply.32.0: 3d876c45
learnable_affine_block_32.w_1_output: 3b1c74ff
ONNXTRT_Broadcast_145_output: 3b1c74ff
Add.99: 3d82b3aa
p2o.pd_op.add.49.0: 3d82b3aa
HardSwish.16_output: 3c010a14
p2o.pd_op.hardswish.16.0: 3d5efa6c
learnable_affine_block_33.w_0_output: 38e77f1c
ONNXTRT_Broadcast_148_output: 38e77f1c
Mul.67: 3a4802e9
p2o.pd_op.multiply.33.0: 3a4802e9
learnable_affine_block_33.w_1_output: 349ca916
ONNXTRT_Broadcast_150_output: 349ca916
Add.101: 3a47f760
p2o.pd_op.add.50.0: 3a47f760
p2o.pd_op.conv2d.9.0: 3e8cd16e
p2o.pd_op.reshape.17.0_output: 3de3b10d
Add.103: 3e335f92
p2o.pd_op.add.51.0: 3e335f92
learnable_affine_block_34.w_0_output: 3b9fe96a
ONNXTRT_Broadcast_152_output: 3b9fe96a
Mul.69: 3dde49bb
p2o.pd_op.multiply.34.0: 3dde49bb
learnable_affine_block_34.w_1_output: 3aa4f9c9
ONNXTRT_Broadcast_154_output: 3aa4f9c9
Add.105: 3ddafa03
p2o.pd_op.add.52.0: 3ddafa03
HardSwish.17_output: 3c010a14
p2o.pd_op.hardswish.17.0: 3d6550c9
learnable_affine_block_35.w_0_output: 3ba14bb8
ONNXTRT_Broadcast_157_output: 3ba14bb8
Mul.71: 3d0f51b6
p2o.pd_op.multiply.35.0: 3d0f51b6
learnable_affine_block_35.w_1_output: 3aafc85f
ONNXTRT_Broadcast_159_output: 3aafc85f
Add.107: 3d04a7ec
p2o.pd_op.add.53.0: 3d04a7ec
p2o.pd_op.depthwise_conv2d.9.0: 3e836692
p2o.pd_op.reshape.18.0_output: 3e08cd55
Add.109: 3e635065
p2o.pd_op.add.54.0: 3e635065
learnable_affine_block_36.w_0_output: 3b1e17d4
ONNXTRT_Broadcast_161_output: 3b1e17d4
Mul.73: 3d8b3f51
p2o.pd_op.multiply.36.0: 3d8b3f51
learnable_affine_block_36.w_1_output: 3b4152ca
ONNXTRT_Broadcast_163_output: 3b4152ca
Add.111: 3d97b2a2
p2o.pd_op.add.55.0: 3d97b2a2
HardSwish.18_output: 3c010a14
p2o.pd_op.hardswish.18.0: 3d9e0e8f
learnable_affine_block_37.w_0_output: 38d56a11
ONNXTRT_Broadcast_166_output: 38d56a11
Mul.75: 3a82b3e8
p2o.pd_op.multiply.37.0: 3a82b3e8
learnable_affine_block_37.w_1_output: 3499f4a9
ONNXTRT_Broadcast_168_output: 3499f4a9
Add.113: 3a82ab08
p2o.pd_op.add.56.0: 3a82ab08
p2o.pd_op.conv2d.10.0: 3e523148
p2o.pd_op.reshape.19.0_output: 3e0dfe0c
Add.115: 3e0b4c3c
p2o.pd_op.add.57.0: 3e0b4c3c
learnable_affine_block_38.w_0_output: 3b8fb425
ONNXTRT_Broadcast_170_output: 3b8fb425
Mul.77: 3d9b20bd
p2o.pd_op.multiply.38.0: 3d9b20bd
learnable_affine_block_38.w_1_output: 3aed684c
ONNXTRT_Broadcast_172_output: 3aed684c
Add.117: 3d7cdbbd
p2o.pd_op.add.58.0: 3d7cdbbd
HardSwish.19_output: 3c010a14
p2o.pd_op.hardswish.19.0: 3d1e4135
learnable_affine_block_39.w_0_output: 3b896122
ONNXTRT_Broadcast_175_output: 3b896122
Mul.79: 3ca87ba8
p2o.pd_op.multiply.39.0: 3ca87ba8
learnable_affine_block_39.w_1_output: 3ab3a1b0
ONNXTRT_Broadcast_177_output: 3ab3a1b0
Add.119: 3cd29604
p2o.pd_op.add.59.0: 3cd29604
p2o.pd_op.depthwise_conv2d.10.0: 3ee0fda9
p2o.pd_op.reshape.20.0_output: 3ea99a31
Add.121: 3ee9be8e
p2o.pd_op.add.60.0: 3ee9be8e
learnable_affine_block_40.w_0_output: 3bc78139
ONNXTRT_Broadcast_179_output: 3bc78139
Mul.81: 3eb4b181
p2o.pd_op.multiply.40.0: 3eb4b181
learnable_affine_block_40.w_1_output: 3b099407
ONNXTRT_Broadcast_181_output: 3b099407
Add.123: 3eb3a39e
p2o.pd_op.add.61.0: 3eb3a39e
HardSwish.20_output: 3c010a14
p2o.pd_op.hardswish.20.0: 3ebaffa8
learnable_affine_block_41.w_0_output: 3c0bc5ae
ONNXTRT_Broadcast_184_output: 3c0bc5ae
Mul.83: 3eca8d60
p2o.pd_op.multiply.41.0: 3eca8d60
learnable_affine_block_41.w_1_output: 3c039566
ONNXTRT_Broadcast_186_output: 3c039566
Add.125: 3e5328cb
p2o.pd_op.add.62.0: 3e5328cb
p2o.pd_op.pool2d.0.0: 3df60307
p2o.pd_op.conv2d.11.0: 3dda9c46
p2o.pd_op.reshape.21.0_output: 39cb78ea
Add.127: 3ddb67cc
p2o.pd_op.add.63.0: 3ddb67cc
p2o.pd_op.relu.0.0: 3ddb67cc
p2o.pd_op.conv2d.12.0: 3d07b585
p2o.pd_op.reshape.22.0_output: 39c4cbe0
Add.129: 3d072bc4
p2o.pd_op.add.64.0: 3d072bc4
p2o.pd_op.hardsigmoid.0.0: 3bf36bae
Mul.85: 3d3c6ec8
p2o.pd_op.multiply.42.0: 3d3c6ec8
p2o.pd_op.conv2d.13.0: 3e21a749
p2o.pd_op.reshape.23.0_output: 3db0c330
Add.131: 3e367a48
p2o.pd_op.add.65.0: 3e367a48
learnable_affine_block_42.w_0_output: 3b97d2b1
ONNXTRT_Broadcast_188_output: 3b97d2b1
Mul.87: 3dd6b252
p2o.pd_op.multiply.43.0: 3dd6b252
learnable_affine_block_42.w_1_output: 3a8bd74a
ONNXTRT_Broadcast_190_output: 3a8bd74a
Add.133: 3de09ce7
p2o.pd_op.add.66.0: 3de09ce7
HardSwish.21_output: 3c010a14
p2o.pd_op.hardswish.21.0: 3d60260c
learnable_affine_block_43.w_0_output: 3ba81036
ONNXTRT_Broadcast_193_output: 3ba81036
Mul.89: 3d11f7bc
p2o.pd_op.multiply.44.0: 3d11f7bc
learnable_affine_block_43.w_1_output: 39d75131
ONNXTRT_Broadcast_195_output: 39d75131
Add.135: 3d218293
p2o.pd_op.add.67.0: 3d218293
p2o.pd_op.depthwise_conv2d.11.0: 3ef276e0
p2o.pd_op.reshape.24.0_output: 3e203a1d
Add.137: 3eee4b1c
p2o.pd_op.add.68.0: 3eee4b1c
learnable_affine_block_44.w_0_output: 3c10f417
ONNXTRT_Broadcast_197_output: 3c10f417
Mul.91: 3f05d73c
p2o.pd_op.multiply.45.0: 3f05d73c
learnable_affine_block_44.w_1_output: 38f9a257
ONNXTRT_Broadcast_199_output: 38f9a257
Add.139: 3f05da29
p2o.pd_op.add.69.0: 3f05da29
HardSwish.22_output: 3c010a14
p2o.pd_op.hardswish.22.0: 3e8606b8
learnable_affine_block_45.w_0_output: 3c4b870e
ONNXTRT_Broadcast_202_output: 3c4b870e
Mul.93: 3ed364a3
p2o.pd_op.multiply.46.0: 3ed364a3
learnable_affine_block_45.w_1_output: 3c5d3b96
ONNXTRT_Broadcast_204_output: 3c5d3b96
Add.141: 3ef504ba
p2o.pd_op.add.70.0: 3ef504ba
p2o.pd_op.pool2d.1.0: 3e23b82b
p2o.pd_op.conv2d.14.0: 3e207093
p2o.pd_op.reshape.25.0_output: 3a8374c4
Add.143: 3e235bb7
p2o.pd_op.add.71.0: 3e235bb7
p2o.pd_op.relu.1.0: 3e235bb7
p2o.pd_op.conv2d.15.0: 3d20b4b9
p2o.pd_op.reshape.26.0_output: 3983eb3d
Add.145: 3d197d9b
p2o.pd_op.add.72.0: 3d197d9b
p2o.pd_op.hardsigmoid.1.0: 3bc22d29
Mul.95: 3d30fea5
p2o.pd_op.multiply.47.0: 3d30fea5
p2o.pd_op.conv2d.16.0: 3e3dc31a
p2o.pd_op.reshape.27.0_output: 3d5c93f7
Add.147: 3da6faa7
p2o.pd_op.add.73.0: 3da6faa7
learnable_affine_block_46.w_0_output: 3b98376d
ONNXTRT_Broadcast_206_output: 3b98376d
Mul.97: 3d44f880
p2o.pd_op.multiply.48.0: 3d44f880
learnable_affine_block_46.w_1_output: 3b44b026
ONNXTRT_Broadcast_208_output: 3b44b026
Add.149: 3d38a794
p2o.pd_op.add.74.0: 3d38a794
HardSwish.23_output: 3c010a14
p2o.pd_op.hardswish.23.0: 3d1b6a6f
learnable_affine_block_47.w_0_output: 3b9a2de2
ONNXTRT_Broadcast_211_output: 3b9a2de2
Mul.99: 3cb9b1c1
p2o.pd_op.multiply.49.0: 3cb9b1c1
learnable_affine_block_47.w_1_output: 3ab0be67
ONNXTRT_Broadcast_213_output: 3ab0be67
Add.151: 3cf4cb3a
p2o.pd_op.add.75.0: 3cf4cb3a
p2o.pd_op.depthwise_conv2d.12.0: 3edfb7ac
p2o.pd_op.reshape.28.0_output: 3dd23b04
Add.153: 3ec704dc
p2o.pd_op.add.76.0: 3ec704dc
learnable_affine_block_48.w_0_output: 3b09228a
ONNXTRT_Broadcast_215_output: 3b09228a
Mul.101: 3dd3813e
p2o.pd_op.multiply.50.0: 3dd3813e
learnable_affine_block_48.w_1_output: 3b9dbbc2
ONNXTRT_Broadcast_217_output: 3b9dbbc2
Add.155: 3ddd8304
p2o.pd_op.add.77.0: 3ddd8304
HardSwish.24_output: 3c010a14
p2o.pd_op.hardswish.24.0: 3d61daee
learnable_affine_block_49.w_0_output: 3873dbae
ONNXTRT_Broadcast_220_output: 3873dbae
Mul.103: 39d56901
p2o.pd_op.multiply.51.0: 39d56901
learnable_affine_block_49.w_1_output: 344c9ad5
ONNXTRT_Broadcast_222_output: 344c9ad5
Add.157: 39d55fe0
p2o.pd_op.add.78.0: 39d55fe0
p2o.pd_op.conv2d.17.0: 3efffa5a
p2o.pd_op.reshape.29.0_output: 3d8b757b
Add.159: 3e0bc8b4
p2o.pd_op.add.79.0: 3e0bc8b4
learnable_affine_block_50.w_0_output: 3bd6befc
ONNXTRT_Broadcast_224_output: 3bd6befc
Mul.105: 3de8a08c
p2o.pd_op.multiply.52.0: 3de8a08c
learnable_affine_block_50.w_1_output: 3b2227ed
ONNXTRT_Broadcast_226_output: 3b2227ed
Add.161: 3de61b1e
p2o.pd_op.add.80.0: 3de61b1e
HardSwish.25_output: 3c010a14
p2o.pd_op.hardswish.25.0: 3d645972
learnable_affine_block_51.w_0_output: 3b3d65ca
ONNXTRT_Broadcast_229_output: 3b3d65ca
Mul.107: 3ca7947a
p2o.pd_op.multiply.53.0: 3ca7947a
learnable_affine_block_51.w_1_output: 3a7122e6
ONNXTRT_Broadcast_231_output: 3a7122e6
Add.163: 3c561f94
p2o.pd_op.add.81.0: 3c561f94
p2o.pd_op.depthwise_conv2d.13.0: 3e53b397
p2o.pd_op.reshape.30.0_output: 3e0de525
Add.165: 3e5aa43c
p2o.pd_op.add.82.0: 3e5aa43c
learnable_affine_block_52.w_0_output: 3b499f9d
ONNXTRT_Broadcast_233_output: 3b499f9d
Mul.109: 3daad032
p2o.pd_op.multiply.54.0: 3daad032
learnable_affine_block_52.w_1_output: 3b2b51df
ONNXTRT_Broadcast_235_output: 3b2b51df
Add.167: 3d9c8808
p2o.pd_op.add.83.0: 3d9c8808
HardSwish.26_output: 3c010a14
p2o.pd_op.hardswish.26.0: 3d9daf21
learnable_affine_block_53.w_0_output: 398ba38a
ONNXTRT_Broadcast_238_output: 398ba38a
Mul.111: 3b2aa2f0
p2o.pd_op.multiply.55.0: 3b2aa2f0
learnable_affine_block_53.w_1_output: 3679f06b
ONNXTRT_Broadcast_240_output: 3679f06b
Add.169: 3b05bc1f
p2o.pd_op.add.84.0: 3b05bc1f
p2o.pd_op.conv2d.18.0: 3ead715c
p2o.pd_op.reshape.31.0_output: 3df42bde
Add.171: 3e21becf
p2o.pd_op.add.85.0: 3e21becf
learnable_affine_block_54.w_0_output: 3c900503
ONNXTRT_Broadcast_242_output: 3c900503
Mul.113: 3eb485ba
p2o.pd_op.multiply.56.0: 3eb485ba
learnable_affine_block_54.w_1_output: 3afc1dc1
ONNXTRT_Broadcast_244_output: 3afc1dc1
Add.173: 3eb324f0
p2o.pd_op.add.86.0: 3eb324f0
HardSwish.27_output: 3c010a14
p2o.pd_op.hardswish.27.0: 3e5c2032
learnable_affine_block_55.w_0_output: 3cef9da4
ONNXTRT_Broadcast_247_output: 3cef9da4
Mul.115: 3f4c60c3
p2o.pd_op.multiply.57.0: 3f4c60c3
learnable_affine_block_55.w_1_output: 3b18dc15
ONNXTRT_Broadcast_249_output: 3b18dc15
Add.175: 3f232959
p2o.pd_op.add.87.0: 3f232959
p2o.pd_op.pool2d.2.0: 3f232959
ONNXTRT_Broadcast_464_output: 3bfb30d9
helper.unsqueeze.0: 3ea99199
helper.constant.0_output: 0
ONNXTRT_Broadcast_251_output: 0
Add.177: 3ea99199
p2o.pd_op.squeeze.0.0: 3d6a86b2
p2o.pd_op.assign.0.0: 3ea99199
p2o.pd_op.conv2d.19.0: 401fdd2e
p2o.pd_op.batch_norm_.1.0: 3cff8026
Sigmoid.1: 3c022da0
p2o.pd_op.swish.0.0: 3ce588dd
p2o.pd_op.conv2d.20.0: 3d64cc82
p2o.pd_op.batch_norm_.2.0: 3d77bb61
Sigmoid.3: 3c00f596
p2o.pd_op.swish.1.0: 3d3fdfaa
auto.cast.46: 3de28d83
p2o.pd_op.matmul.12.0: 3e29470e
linear_8.b_0_output: 39fc6870
p2o.pd_op.swish.5.0: 3be61cfd
p2o.pd_op.reshape.35.0: 3d2258a8
ONNXTRT_Broadcast_604_output: 3b98e26c
ONNXTRT_Broadcast_502_output: 0
p2o.pd_op.scale.1.0: 3ce9fb92
Div.5: 3d716165
ONNXTRT_Broadcast_460_output: 3bb6703a
linear_5.b_0_output: 3b695098
p2o.pd_op.layer_norm.4.0: 3c284ef0
ReduceMean.13: 3c11755e
linear_7.w_0_output: 3bae0e8f
p2o.pd_op.dropout.6.0: 3d11f522
ONNXTRT_Broadcast_590_output: 3bae0e8f
p2o.pd_op.matmul.11.0: 3e1f1e15
p2o.pd_op.add.98.0: 3e1fff57
p2o.pd_op.dropout.7.0: 3e1fff57
Add.219: 3e1fff57
Add.221: 3e8530cf
p2o.pd_op.add.99.0: 3e8530cf
auto.cast.52: 3e8530cf
ONNXTRT_Broadcast_592_output: 3c0715ff
ReduceMean.17: 3befcb5c
Sub.9: 3e754d14
ONNXTRT_Broadcast_594_output: 3c810a14
linear_7.b_0_output: 3c0715ff
Pow.9: 4005fb89
ONNXTRT_Broadcast_606_output: 39fc6870
ReduceMean.19: 3e6b8f10
Add.227: 3e232119
Add.217: 3ddda16c
auto.cast.47_output: 3b054573
Sigmoid.7: 3c0096ec
p2o.pd_op.reshape.34.0: 3dd37c31
ONNXTRT_Broadcast_462_output: 3bb40a67
Add.205: 3dd37c31
Slice.15: 3d860e60
p2o.pd_op.conv2d.23.0: 3c02ef57
helper.constant.34_output: 33a9226d
p2o.pd_op.swish.3.0: 3d11f522
p2o.pd_op.add.97.0: 3ddda16c
p2o.pd_op.slice.5.0: 3d860e60
Add.203: 3d53e32e
auto.cast.61: 3d26ee54
helper.reshape.5_output: 3bb6703a
Sigmoid.11: 3bd90493
Slice.13: 3de28d83
p2o.builtin.combine.1.0_1: 3d26ee54
Mul.130: 3d90a104
p2o.pd_op.matmul.9.0: 3d1d92be
p2o.pd_op.batch_norm_.5.0: 3d96ce34
Div.7: 3d6cfeac
p2o.pd_op.batch_norm_.4.0: 3c9b8403
Add.215: 3d87e127
p2o.pd_op.matmul.10.0: 3dc93f3e
p2o.pd_op.slice.6.0: 3d4943d4
helper.constant.35_output: 3c810a14
Sqrt.5: 3c54d5d6
p2o.pd_op.dropout.5.0: 3d1e494e
helper.constant.58_output: 32074ebd
ONNXTRT_Broadcast_596_output: 32074ebd
p2o.pd_op.flatten.0.0: 3d3fdfaa
p2o.pd_op.transpose.0.0: 3d3fdfaa
auto.cast.32: 3d3fdfaa
ReduceMean.1: 3c0afde9
Sub.1: 3d57c222
helper.constant.11_output: 3c810a14
ONNXTRT_Broadcast_315_output: 3c810a14
Pow.1: 3e0ca0c3
ReduceMean.3: 3c4c6327
helper.constant.10_output: 33a9226d
ONNXTRT_Broadcast_317_output: 33a9226d
Add.179: 3c4c6384
Sqrt.1: 3c1aa55b
Div.1: 3d713924
helper.reshape.0_output: 3bf33e00
ONNXTRT_Broadcast_319_output: 3bf33e00
Mul.119: 3d0fcfdf
helper.reshape.1_output: 3b8fffa0
ONNXTRT_Broadcast_321_output: 3b8fffa0
Add.181: 3d03b789
p2o.pd_op.layer_norm.0.0: 3d03b789
linear_0.w_0_output: 3b97edf1
ONNXTRT_Broadcast_323_output: 3b97edf1
p2o.pd_op.matmul.0.0: 3d2ce5a7
linear_0.b_0_output: 3bf88b71
ONNXTRT_Broadcast_325_output: 3bf88b71
Add.183: 3d2cb93a
p2o.pd_op.add.88.0: 3d2cb93a
p2o.pd_op.reshape.32.0: 3d2cb93a
p2o.pd_op.transpose.1.0: 3d2cb93a
p2o.pd_op.transpose.6.0: 3d2258a8
ONNXTRT_Broadcast_584_output: 3c827f0f
p2o.pd_op.swish.4.0: 3d26ee54
linear_4.b_0_output: 3bfb30d9
Add.211: 3daf2807
Add.201: 3cabad01
helper.reshape.8_output: 3b8fe5fc
ONNXTRT_Broadcast_598_output: 3b8fe5fc
Sqrt.9: 3d379d62
Mul.133: 3c284fd9
helper.reshape.9_output: 34bec4a0
Div.9: 3d4b6fa9
p2o.pd_op.concat.0.0: 3ea99199
ONNXTRT_Broadcast_578_output: 3c810a14
ReduceMean.15: 3cd27e12
helper.constant.44_output: 0
ONNXTRT_Broadcast_500_output: 3b054573
Add.209: 3d1e494e
helper.constant.52_output: 3c810a14
helper.constant.59_output: 3c810a14
Sqrt.7: 3c64463f
linear_6.w_0_output: 3b93e7f3
p2o.pd_op.layer_norm.3.0: 3d87e127
p2o.pd_op.matmul.8.0: 3d2258a8
p2o.pd_op.transpose.5.0: 3d860e60
ONNXTRT_Broadcast_580_output: 33a9226d
Slice.5: 3d2203a7
p2o.pd_op.layer_norm.2.0: 3d53e32e
p2o.pd_op.slice.1.0: 3d2203a7
auto.cast.36: 3d2203a7
auto.cast.37_output: 3b054573
ONNXTRT_Broadcast_361_output: 3b054573
Mul.121: 3c2753df
helper.constant.20_output: 0
ONNXTRT_Broadcast_363_output: 0
Add.185: 3c2753df
p2o.pd_op.scale.0.0: 3c2753df
p2o.pd_op.transpose.4.0: 3dd37c31
p2o.pd_op.matmul.6.0: 3dd29d06
p2o.pd_op.add.94.0: 3dd37c31
linear_8.w_0_output: 3b98e26c
auto.cast.60: 3ea99199
ONNXTRT_Broadcast_456_output: 33a9226d
ONNXTRT_Broadcast_458_output: 3c17a4cf
ReduceMean.11: 3c9b516f
p2o.pd_op.swish.6.0: 3d6a86b2
ONNXTRT_Broadcast_586_output: 3b93e7f3
p2o.pd_op.add.96.0: 3daf2807
p2o.pd_op.conv2d.22.0: 3f04e794
helper.constant.51_output: 33a9226d
ONNXTRT_Broadcast_582_output: 3c4ff824
p2o.pd_op.slice.4.0: 3de28d83
Pow.5: 3e65d026
Slice.17: 3d4943d4
p2o.pd_op.softmax.1.0: 3c01120e
ReduceMean.9: 3c0e6962
p2o.pd_op.dropout.4.0: 3c01120e
p2o.pd_op.matmul.7.0: 3ec15ec6
Add.213: 3cd27e43
helper.reshape.7_output: 3c827f0f
p2o.pd_op.add.95.0: 3d1e494e
p2o.pd_op.transpose.8.0: 3d6a86b2
ONNXTRT_Broadcast_588_output: 3ae129af
Slice.7: 3d2cb93a
p2o.pd_op.batch_norm_.3.0: 3d9ae437
p2o.pd_op.slice.2.0: 3d2cb93a
Add.225: 3c284ef0
linear_6.b_0_output: 3ae129af
Add.207: 3ce9fb92
fetch_name_0: 3c010a14
Add.223: 3e6b8f11
Softmax.2_output: 3c010a14
p2o.pd_op.add.100.0: 3e232119
p2o.builtin.combine.1.0_0: 3ea99199
ONNXTRT_Broadcast_600_output: 34bec4a0
Pow.7: 3e4c77eb
ONNXTRT_Broadcast_574_output: 3b7ac21a
Softmax.1_output: 3c01120e
Mul.126: 3d4ab26f
Concat.4: 3ea99199
Sigmoid.13: 3c00cde7
p2o.pd_op.transpose.7.0: 3c284ef0
helper.reshape.6_output: 3c4ff824
linear_5.w_0_output: 3b7ac21a
ONNXTRT_Broadcast_454_output: 3c810a14
Mul.128: 3ce9fb92
linear_4.w_0_output: 3bb40a67
helper.reshape.4_output: 3c17a4cf
auto.cast.49: 3daf2807
ONNXTRT_Broadcast_576_output: 3b695098
Sub.5: 3d9d908d
Sub.7: 3da8d9d5
Slice.9: 3d12fdfd
Sigmoid.9: 3c00ef20
p2o.pd_op.slice.3.0: 3d12fdfd
p2o.pd_op.transpose.2.0: 3d2cb93a
p2o.pd_op.matmul.1.0: 3d8fde4f
Softmax.0_output: 3b8876de
p2o.pd_op.softmax.0.0: 3b8876de
p2o.pd_op.reshape.36.0: 3c284ef0
p2o.pd_op.conv2d.21.0: 3c5203f4
p2o.pd_op.dropout.0.0: 3b8876de
p2o.pd_op.matmul.2.0: 3cb998fd
p2o.pd_op.transpose.3.0: 3cb998fd
p2o.pd_op.reshape.33.0: 3cb998fd
linear_1.w_0_output: 3b551e5c
ONNXTRT_Broadcast_434_output: 3b551e5c
p2o.pd_op.matmul.3.0: 3c584b4e
linear_1.b_0_output: 3a74b7bf
ONNXTRT_Broadcast_436_output: 3a74b7bf
Add.187: 3c63ab37
p2o.pd_op.add.89.0: 3c63ab37
p2o.pd_op.dropout.1.0: 3c63ab37
Add.189: 3d80bff6
p2o.pd_op.add.90.0: 3d80bff6
auto.cast.39: 3d80bff6
ReduceMean.5: 3c096434
Sub.3: 3d7c168c
helper.constant.28_output: 3c810a14
ONNXTRT_Broadcast_438_output: 3c810a14
Pow.3: 3def5ac2
ReduceMean.7: 3c5c34d4
helper.constant.27_output: 33a9226d
ONNXTRT_Broadcast_440_output: 33a9226d
Add.191: 3c5c3523
Sqrt.3: 3c2b0249
Div.3: 3d6a4344
helper.reshape.2_output: 3c21a663
ONNXTRT_Broadcast_442_output: 3c21a663
Mul.123: 3d6df9b3
helper.reshape.3_output: 3c7338ea
ONNXTRT_Broadcast_444_output: 3c7338ea
Add.193: 3d7c2d2a
p2o.pd_op.layer_norm.1.0: 3d7c2d2a
linear_2.w_0_output: 3bc9a13c
ONNXTRT_Broadcast_446_output: 3bc9a13c
p2o.pd_op.matmul.4.0: 3dcf7f5a
linear_2.b_0_output: 3b096d5c
ONNXTRT_Broadcast_448_output: 3b096d5c
Add.195: 3dd266aa
p2o.pd_op.add.91.0: 3dd266aa
Sigmoid.5: 3bfe80bd
p2o.pd_op.swish.2.0: 3ca4e51a
p2o.pd_op.dropout.2.0: 3ca4e51a
linear_3.w_0_output: 3b895c6d
ONNXTRT_Broadcast_450_output: 3b895c6d
p2o.pd_op.matmul.5.0: 3ccd3b16
linear_3.b_0_output: 3b186e6c
ONNXTRT_Broadcast_452_output: 3b186e6c
Add.197: 3cdb6e9f
p2o.pd_op.add.92.0: 3cdb6e9f
p2o.pd_op.dropout.3.0: 3cdb6e9f
Add.199: 3db041c7
p2o.pd_op.add.93.0: 3db041c7
auto.cast.42: 3db041c7
Conv.0 expanded_const_filter: 3f800000
Conv.1 expanded_const_filter: 3f800000
Conv.2 expanded_const_filter: 3f800000
Conv.3 expanded_const_filter: 3f800000
Conv.4 expanded_const_filter: 3f800000
Conv.5 expanded_const_filter: 3f800000
Conv.6 expanded_const_filter: 3f800000
Conv.7 expanded_const_filter: 3f800000
Conv.8 expanded_const_filter: 3f800000
Conv.9 expanded_const_filter: 3f800000
Conv.10 expanded_const_filter: 3f800000
Conv.11 expanded_const_filter: 3f800000
Conv.12 expanded_const_filter: 3f800000
Conv.13 expanded_const_filter: 3f800000
Conv.14 expanded_const_filter: 3f800000
Conv.15 expanded_const_filter: 3f800000
Conv.16 expanded_const_filter: 3f800000
Conv.17 expanded_const_filter: 3f800000
Conv.18 expanded_const_filter: 3f800000
Conv.19 expanded_const_filter: 3f800000
Conv.20 expanded_const_filter: 3f800000
Conv.21 expanded_const_filter: 3f800000
Conv.22 expanded_const_filter: 3f800000
Conv.23 expanded_const_filter: 3f800000
Conv.24 expanded_const_filter: 3f800000
Conv.25 expanded_const_filter: 3f800000
Conv.26 expanded_const_filter: 3f800000
Conv.27 expanded_const_filter: 3f800000
Conv.28 expanded_const_filter: 3f800000
Conv.29 expanded_const_filter: 3f800000
Conv.30 expanded_const_filter: 3f800000
Conv.31 expanded_const_filter: 3f800000
Conv.32 expanded_const_filter: 3f800000
Conv.33 expanded_const_filter: 3f800000
Conv.34 expanded_const_filter: 3f800000
Conv.35 expanded_const_filter: 3f800000
Conv.36 expanded_const_filter: 3f800000
Conv.37 expanded_const_filter: 3f800000
